<?xml version="1.0"?>
<opencv_storage>
<my_nn type_id="opencv-ml-ann-mlp">
  <layer_sizes type_id="opencv-matrix">
    <rows>1</rows>
    <cols>3</cols>
    <dt>i</dt>
    <data>
      20 10 1</data></layer_sizes>
  <activation_function>SIGMOID_SYM</activation_function>
  <f_param1>1.</f_param1>
  <f_param2>1.</f_param2>
  <min_val>-9.4999999999999996e-001</min_val>
  <max_val>9.4999999999999996e-001</max_val>
  <min_val1>-9.7999999999999998e-001</min_val1>
  <max_val1>9.7999999999999998e-001</max_val1>
  <training_params>
    <train_method>BACKPROP</train_method>
    <dw_scale>1.0000000000000001e-001</dw_scale>
    <moment_scale>1.0000000000000001e-001</moment_scale>
    <term_criteria><epsilon>9.9999997473787516e-006</epsilon>
      <iterations>1000000</iterations></term_criteria></training_params>
  <input_scale>
    8.7916242591513249e-001 -8.4382009639334421e-001
    6.0553743864018350e-001 -1.5779094576085901e+000
    1.2484055612535849e-002 -1.9609355321501909e+000 1. -1.
    1.0765101705056622e-001 -3.2794805834284496e-001
    1.6162281403313626e-002 -2.5714771554802498e+000
    7.7532310895608414e-001 -1.8800034745967127e+000
    2.5770706727347354e+000 -1.3262597287657527e+000
    3.4340038167976807e+000 -5.8796360608849663e-001
    3.6204002504853707e+000 -5.6774984711658250e-001
    3.5767820579830176e+000 -5.6271292041596210e-001
    4.0867949295191961e+000 -4.1426959383815165e-001
    1.1298285459408761e-001 -2.9025295345221108e-001
    1.4561334796772246e-002 -2.2070120066084602e+000
    7.2157979551750884e-001 -1.7642626000403090e+000
    2.3784001536020845e+000 -1.2028749571700452e+000
    3.1001118802599170e+000 -5.3717374454305666e-001
    3.2073396869783410e+000 -5.2257117736820824e-001
    3.2536640428571442e+000 -5.1422534198861880e-001
    3.3362130280366626e+000 -4.4782450736030649e-001</input_scale>
  <output_scale>
    4.1962155793842520e+001 3.9864048004150391e+001</output_scale>
  <inv_output_scale>
    2.3830996789415165e-002 -9.4999999999999996e-001</inv_output_scale>
  <weights>
    <_>
      -3.8161360435739044e-003 -4.2591947311875772e-001
      -1.3188351571070536e-001 -8.8010551599137898e-002
      7.2348516652964864e-002 2.4454504560783530e-001
      -1.1744927408121318e-001 1.4673657277143753e-001
      1.2113211916454850e-001 -1.2438306406879254e-001
      1.0644716904748754e-001 -2.6445928305258781e-001
      9.4183991257948546e-002 -4.0274899428100301e-002
      -2.7837559570923787e-001 -6.0604564073790335e-001
      1.7926028249390127e-001 -3.8098228337225865e-001
      -1.2342959963605975e-001 -4.2396061257053702e-001
      -5.8475036214502696e-001 2.5666292498642046e-001
      2.4135718627889560e-001 1.0184065836378091e-001
      3.5625580486218444e-001 4.8445058403932451e-001
      -3.8859429604916540e-001 -5.0594259939398267e-001
      1.4256443374638769e-001 3.5244868449646760e-001
      7.4848109258884077e-002 8.5837974083062804e-002
      -6.0627563452034898e-002 -7.6056649144087121e-002
      2.8005713462533308e-002 3.7214387143413075e-002
      -6.3668034373494969e-002 -7.7822115600473349e-002
      -2.6104898381850389e-002 3.9791399683526208e-003
      3.1287087087222304e-001 -7.2568320198353620e-001
      -2.4264009452386784e-002 -3.7861864296072500e-001
      -9.8847017779732915e-001 -1.3581630911077331e+000
      1.2848773348041531e-001 3.3782871656865526e-001
      -7.9152446329276496e-002 -9.0244881153545531e-001
      -4.1160788201494942e-002 -3.3731470354550203e-001
      1.3105495356217914e-001 -1.4450379813135500e-001
      -3.7724004221926233e-002 -7.9285384345173810e-003
      -1.0912806950305035e-001 -1.2575094297375039e-001
      4.7890501127979893e-002 -1.6697140276348341e-001
      -2.8057886735131754e-001 2.0107778404127927e-001
      2.2148634575014434e-001 7.5518953498526498e-002
      -8.6886190909927621e-002 4.6228894803977065e-002
      -1.0550296274100766e-001 -1.0118308002763574e-001
      1.5796168984108833e-001 -2.8806266403580451e-002
      5.5489356172993880e-002 2.2703148709146356e-001
      9.6068653819622429e-002 -5.7217097091564535e-002
      4.3786094417144768e-002 -4.4131190645135226e-001
      1.4069484631510998e-001 -3.4441194012398008e-002
      -3.6987173142063824e-002 1.7479588165563179e-001
      -1.0189589062576401e-001 2.3734868801156578e-001
      -1.2136284734121734e-001 2.4699356361670317e-003
      -5.6295395695256412e-001 -1.4718015944855398e-002
      -1.5757522759137038e-001 1.5764740304135078e-001
      -9.6193663982209993e-002 9.0114824025764900e-002
      -3.3180944003569253e-003 -1.1010353174135254e-001
      -6.6507943037970557e-002 1.2429594238964063e-001
      3.7370580318058660e-001 1.6887318347290742e-001
      -1.3202213474412131e-001 1.0647346294213220e-001
      4.9947887268430649e-003 -2.3831930152855815e-001
      -6.7455989136542924e-002 -4.3313005312340658e-001
      -1.0154355688191562e-001 -2.1071833300200035e-001
      1.7303051072874961e-001 4.6316964524959908e-001
      -5.3435615867575226e-002 6.5368888842349615e-003
      3.9038804639108061e-002 3.8173383677165496e-002
      2.1700764910656245e-001 2.1052740345575921e-001
      -3.2197729470335064e-003 7.4465765335272216e-002
      -3.7483544077604131e-001 1.1693264612353098e-001
      1.9568504459640484e-001 -4.1062498936418411e-002
      -6.9519448674261533e-002 -1.1114237714620233e-001
      -2.4355376305624188e-001 -1.5680630657997294e-001
      1.9743172531247646e-001 -1.2798311669923285e-001
      -3.2018652383857155e-001 -3.4182982424822844e-001
      -3.5511097818836057e-001 2.0377562218036335e-001
      -4.7880641724524990e-002 -8.9009843570190136e-002
      -4.2584080523552242e-001 3.0542557043951535e-001
      -1.1860394922848587e-002 1.2822133772901081e-001
      5.3034698688110871e-001 5.7278310076657457e-001
      -6.2274084612437847e-003 -1.0508447165742402e-001
      1.3467193400755087e-001 2.9453168162683213e-001
      1.2419224055326543e-001 3.3002224589129180e-002
      -8.5948408984357613e-002 -1.7152502679933912e-001
      2.4728661832884996e-001 -2.6328728285263769e-001
      3.6382324286110124e-001 5.9907507983450584e-002
      7.4694105986027617e-002 -2.3728316010646247e-001
      -5.5760499654758960e-002 -2.9586597016914834e-001
      1.3558968605760985e-001 1.8609948915616844e-002
      1.6754779660447908e-001 -1.6483612716215493e-001
      -3.0910056047453233e-001 2.3403291495616468e-001
      8.8307603029025267e-002 1.0632438221514852e-001
      3.5434218855626108e-002 3.5695821504985159e-001
      -1.3681792359150038e-001 7.7515691387304422e-002
      4.3958991048039388e-002 -1.6655842863445661e-001
      -1.8435837890027637e-001 2.0711832190356488e-001
      -7.2827811149139873e-002 -3.1456738552827052e-001
      9.8325300310516551e-003 -1.3513494341159289e-002
      -1.0406496065031630e-001 -6.4779193494052447e-003
      -4.8255236472890678e-002 1.3415028927361058e-001
      1.6453976950696569e-001 -3.1466283698311109e-001
      9.4825534259084465e-002 1.5307125818096204e-001
      -1.8460846613132669e-002 1.3043895263683594e-001
      4.5075219152379969e-002 6.6853679451152281e-002
      -1.2485387043614268e-001 3.2095293929594565e-001
      3.7520892463790101e-001 4.0589107729961563e-002
      -1.4830211548432157e-001 1.2500555253225885e-002
      3.0121673245918934e-001 -1.2391651090287926e-001
      -9.9408803130397808e-002 1.9489269491935742e-002
      5.5981294612921985e-002 -7.1221348083031100e-002
      -2.3374289039931113e-002 2.1819676322555034e-001
      -3.1822539695698537e-002 -1.1313660098453537e-001
      5.3428419742900291e-001 -7.9052599484904340e-001
      5.9824077575498166e-002 -1.8766026876099409e-001
      -1.5092405849655027e-001 -2.0988984215377648e-001
      4.1112393518913221e-001 6.0235092100075743e-002
      -1.5597535275877458e-001 -6.6553587450827634e-001</_>
    <_>
      -3.5778521419651113e-002 4.7509686770512272e-001
      1.8269573323679333e-001 5.9209833722716293e-002
      4.1597683544609315e-001 5.1208723642946574e-001
      -3.7513904165313217e-001 -3.2534762920698174e-001
      2.3789267426240695e-002 2.9670520943504330e-001
      -1.4255097739277158e+000</_></weights></my_nn>
</opencv_storage>
